FFFFF879
FFFFE509
FFFFF483
FFFFF5A3
FFFFDA61
FFFFE023
FFFFECA3
00000828
FFFFFA3D
000006F3
FFFFEBAE
FFFFE3FA
00000A1C
FFFFEAD8
0000153C
0000165E
FFFFEFAF
FFFFEFEF
000012A3
FFFFE50C
FFFFFEB2
0000126F
FFFFD2FE
FFFFDE55
FFFFD971
FFFFE9E5
00000A50
FFFFFAA3
FFFFD799
00001A72
FFFFDCB5
00000368
FFFFDCDE
FFFFF2DE
00001CC2
00001ED1
FFFFFC7E
000003EE
00002121
0000030C
FFFFE1D4
00000016
FFFFEFA9
000017F2
FFFFFF48
FFFFE070
FFFFEA5E
FFFFFF3D
FFFFF2F5
FFFFFB5B
FFFFDAE6
FFFFFD7E
FFFFE4B2
00000877
0000122E
0000103F
00000959
00001730
0000191A
FFFFE46A
000012D9
FFFFF1BE
000011AA
FFFFE108
FFFFEF2F
FFFFE2FB
000021B5
00001E8D
00001A4A
FFFFF6D5
FFFFF46F
FFFFFEE5
FFFFFB5A
FFFFE67A
0000018F
FFFFE5DC
00000629
FFFFE1B5
FFFFDE35
FFFFF4EF
FFFFF38E
FFFFDF57
00001046
00000610
FFFFFA6B
00000B30
FFFFFC55
FFFFE890
000019F3
00000D89
00000615
FFFFF0DC
000021ED
00001333
000005A4
FFFFFEA5
000003C3
FFFFE296
FFFFE2B2
000009D6
FFFFE33A
000019CF
FFFFF644
00000B33
FFFFE08C
FFFFF10F
FFFFF413
FFFFE539
00000F88
00000F1E
FFFFEADE
FFFFECA2
FFFFE825
0000170A
0000104C
FFFFE44A
000015BD
00000357
FFFFDBDC
FFFFEE2F
FFFFFEE7
FFFFDF60
FFFFF0C7
FFFFEB50
FFFFEC34
FFFFFD10
00000B99
00001E8E
0000034C
FFFFF2DF
000003F5
FFFFFBF7
000021C3
FFFFD77C
FFFFDC03
00001123
FFFFE020
FFFFFD84
FFFFFAC6
FFFFE65A
FFFFE304
00001332
000002DE
FFFFDECB
FFFFE228
FFFFFC87
FFFFE82E
FFFFEB35
000011D7
FFFFE435
00000B5A
FFFFEE3F
00000658
FFFFFB7C
FFFFE369
FFFFDE82
00000204
FFFFE556
FFFFE8DF
0000147E
000009F2
00000619
FFFFE3D5
FFFFDAD4
00000587
000008A7
00000D5F
FFFFDDD3
000003D1
FFFFE0E9
FFFFEACC
FFFFFDA3
00001A42
FFFFFEAF
FFFFFA2D
FFFFFE7C
FFFFFE30
00000BD7
00001420
00000B22
FFFFFE4E
FFFFF2B9
00000F69
FFFFEC15
FFFFD840
000008DF
00001678
FFFFF94C
000013E1
FFFFE9B4
FFFFEDEC
00001FE0
FFFFEA0C
FFFFDC48
0000127A
FFFFFD2E
FFFFE0F8
FFFFEE21
FFFFFCB6
FFFFEE6F
FFFFE6EB
00001512
00001E39
FFFFE4E5
FFFFE288
000016BF
FFFFF7CF
FFFFDE04
00001FBB
FFFFEDD8
FFFFDA7F
FFFFF21F
FFFFD9BE
FFFFFAB3
FFFFDDE5
00001858
FFFFEBE7
FFFFEEA7
FFFFDFF0
FFFFFE0E
00001E99
00001F27
FFFFF6A2
00001194
FFFFE062
00000596
FFFFF611
0000227C
000000D6
FFFFF13B
FFFFF385
00000E7D
FFFFF4B9
00001125
00001964
FFFFE5E5
00000E4C
FFFFFD95
FFFFE131
FFFFED10
FFFFF7C0
00001C58
00000AA7
000002C0
00001597
FFFFFA4A
FFFFE740
FFFFF42D
00001BE6
00001F36
000001B9
FFFFE9BE
FFFFE20D
00000B98
00001C83
FFFFF0F6
FFFFF445
00000479
000003DC
FFFFFF90
0000056F
00000CBE
FFFFF2CD
FFFFF535
0000217F
00001F2B
FFFFFF48
FFFFF6C1
FFFFECA7
FFFFEC22
FFFFEBDC
00000329
FFFFFB3A
0000019F
00000BC7
FFFFE5B2
FFFFDE07
00001C7C
00000B13
FFFFEBF5
FFFFF2B7
FFFFDC52
FFFFEB73
00001DE1
00001F8D
FFFFEAA6
FFFFE23F
FFFFEECF
00000121
FFFFEE54
0000191F
00000CC5
00000875
FFFFFCB0
FFFFE9D7
FFFFD969
00000614
FFFFD974
FFFFF80F
00000190
FFFFEF87
00000BA3
FFFFEA70
00000D2F
FFFFF0B7
FFFFF768
FFFFEF48
FFFFF025
FFFFFC3B
FFFFED41
FFFFF3FC
00001FC7
FFFFF750
FFFFDB8D
FFFFE53F
0000246C
FFFFEC38
FFFFDC46
00001604
00001A83
FFFFFAF1
FFFFF4FD
FFFFFBE6
FFFFF8CC
FFFFEAF5
00001327
000015B2
FFFFF177
00001D16
FFFFE5E8
FFFFE76D
00000ACB
FFFFE50E
000012FB
000009A7
FFFFECDE
0000094E
FFFFE5AF
0000136D
00000F35
00000006
000019E1
FFFFF557
FFFFE999
FFFFFADC
FFFFEED0
FFFFFA3A
00001647
0000037C
00001CED
FFFFFB18
00000E79
0000025D
FFFFEB8F
00001647
00001841
FFFFFE5B
FFFFEB97
000010F2
00000B05
00000227
000010F8
00001633
00001315
00001133
00000242
FFFFDBDE
0000198A
FFFFF06B
0000234C
00000A03
FFFFE221
FFFFFF46
FFFFF703
00001551
00000EAA
000002F8
00000A10
FFFFF737
FFFFF1F6
00000E6B
00000A3A
FFFFE8A9
FFFFDC28
FFFFE6B0
FFFFDBBD
0000202F
FFFFEBBD
00000627
0000013B
FFFFF81C
00000AE6
FFFFFF35
FFFFE3AC
FFFFFF72
FFFFFB53
00001C2E
000000B2
FFFFFA42
0000080E
000006F2
00000DE4
FFFFF586
FFFFDD62
FFFFD92D
FFFFEDA5
FFFFFDCC
FFFFF883
00002277
FFFFEB93
0000137E
00002559
000007A8
000002D2
000000A1
00000B0A
00001BF2
FFFFF330
00000A68
00001460
FFFFE8CC
00000D29
0000025F
FFFFF748
00000872
FFFFEF05
000001E0
FFFFF6F9
FFFFE88C
000012F7
FFFFE2EA
FFFFE8FF
FFFFF09A
000012E5
00001BE2
FFFFD6A5
FFFFE8DD
FFFFF11F
FFFFE8E7
FFFFE6FA
00001211
FFFFE426
FFFFF5E0
FFFFD8C0
00000312
00000868
000003DA
00001542
FFFFEBE3
FFFFE7E4
FFFFE4D4
00000E60
00000EE2
FFFFFF76
00000FEF
0000172E
000011FD
00001C52
FFFFFC10
FFFFF791
FFFFEDC6
00000B9D
0000142E
FFFFE4A2
FFFFFE26
00000971
FFFFFFCB
FFFFF423
FFFFF6BC
FFFFE0FB
00001869
FFFFD4FC
0000132C
00000F32
00001D9C
FFFFFD62
00001422
FFFFEBCF
00000C59
FFFFE6C3
00000506
000003DE
00001078
FFFFEFA1
FFFFE6C8
FFFFE2AC
000018A2
FFFFFBBC
FFFFED39
FFFFEB31
00000BAE
00000583
FFFFF5F5
FFFFE1CC
FFFFEAB3
000018D8
FFFFE444
FFFFE021
00000CBC
FFFFF04E
00000C44
00001ABB
FFFFF978
00001A3E
FFFFEB8F
00001609
FFFFFE06
00000405
FFFFE957
00001C22
FFFFF418
000009B5
FFFFFA37
FFFFEFE9
FFFFEFC0
FFFFFE9B
000005BC
FFFFEF03
000018AA
FFFFEE8B
FFFFDC87
00000289
00000B6E
FFFFFD39
00000D3E
00001380
FFFFF7CF
FFFFED11
FFFFEE4D
FFFFF372
0000180F
FFFFE4DF
0000002C
00001914
FFFFEDF9
00001975
00000EB3
0000106C
00000FEE
FFFFDDA2
FFFFF9F4
FFFFF8EF
FFFFFD13
00000541
FFFFE893
00001487
FFFFF4C2
0000190F
FFFFF366
0000016E
00001724
FFFFFA91
FFFFE064
FFFFEB7C
00001AAB
000000F8
0000133C
00001CAB
FFFFE327
00000AA5
00002652
FFFFEA6E
FFFFF292
00001DFF
0000139D
FFFFEC50
000002A1
FFFFD2AA
FFFFE7EC
00001172
FFFFF749
0000030F
0000146F
0000051A
00001515
FFFFF0E8
000004D2
0000173F
00000529
FFFFFAF4
FFFFE393
0000172E
FFFFDA5D
00000D0A
FFFFFF48
FFFFE38E
00001604
FFFFED6A
FFFFDB55
00000CFE
00000402
000008A4
FFFFFEFA
00001C67
FFFFDB21
00002247
0000293D
FFFFFA5B
000011B8
FFFFFB86
00001E46
000008F1
FFFFF0BE
FFFFF57D
00001B87
FFFFE67A
FFFFEFEA
0000048D
FFFFF928
FFFFF885
FFFFFC61
FFFFDF99
FFFFFE26
00002A6C
FFFFEBD9
FFFFF555
00001172
FFFFE587
00000008
FFFFE361
00000384
000001DA
FFFFF9F4
FFFFE0EA
00001F66
000005D3
FFFFE7CA
FFFFF351
0000115C
00001BDF
00001CC7
00001148
000004B3
FFFFEDE3
FFFFDF56
000016B4
FFFFF921
00000D37
FFFFE046
FFFFFA67
00000AD1
FFFFE8AE
FFFFF9DF
00001FA9
FFFFE800
00001776
00000809
00000CAC
FFFFEE7A
FFFFF2AC
0000246A
FFFFF8FC
FFFFF40A
00001D25
00001B1F
000012EE
00001C16
0000212A
FFFFDE4A
00001700
FFFFDE24
000003DC
FFFFD4BC
FFFFFB45
00000E1D
0000081D
FFFFEDBE
000004DE
FFFFE673
00001696
00001F90
0000206A
00000DEB
FFFFED18
00000FB6
FFFFDD1C
FFFFF30B
FFFFD6D8
FFFFF5C5
FFFFE1B6
FFFFE515
FFFFE8EC
00002224
00000BEC
FFFFEEB9
FFFFE7AB
000014CE
FFFFFABB
000014A6
FFFFFB06
FFFFFFBD
FFFFF99D
FFFFEC2D
00002017
FFFFFDC8
FFFFF7BE
FFFFF6AB
000013D3
00001BB2
FFFFF427
00000FD4
FFFFE5E0
FFFFFD61
000002CF
00000863
00000498
FFFFEAA7
FFFFDED1
00002303
FFFFDA4F
00000267
FFFFDE64
000002E0
FFFFEE4A
000012AD
00000FB3
00000F59
0000091E
00000EC8
00000760
0000197E
FFFFE33F
FFFFFE5F
000016CD
00001188
FFFFF335
FFFFE959
FFFFE3EC
FFFFE683
FFFFE7D6
0000180F
000009A7
FFFFF39F
FFFFFCAA
FFFFF160
FFFFFDED
000010DD
FFFFFCE1
000027A4
000011D3
FFFFEFA0
0000210D
00000DC2
00001B18
00000213
FFFFEC45
FFFFF585
00000307
FFFFFEF6
FFFFF07B
FFFFFADE
000013E3
00001937
000018E5
FFFFEEBB
FFFFECF7
FFFFEE47
00000B3F
0000026E
00001CB5
00000ADD
FFFFE898
FFFFFC51
FFFFFE88
FFFFE94F
FFFFE670
00001275
FFFFEBF1
FFFFE97A
000019C9
000018CF
00001A74
00000786
FFFFEF8A
00000F1F
000021E0
FFFFE1AA
FFFFE179
FFFFF757
FFFFDF03
FFFFDF77
FFFFFB1C
FFFFF9E9
00000057
FFFFF112
00001CC5
FFFFFBF5
FFFFE62A
FFFFF0E1
FFFFEB15
FFFFF2E4
00001357
00000E1D
00000C4D
FFFFF5E2
FFFFEEB3
00001E5E
FFFFEECF
00001E64
0000176E
00000E51
00000432
000027D3
FFFFD333
0000127B
FFFFE6B5
00001D28
FFFFF310
00001B0F
00000952
00001848
FFFFEEAE
FFFFF9F6
FFFFF75E
0000093E
FFFFF4F6
00000576
FFFFE6AE
00002C5C
FFFFF28C
FFFFE4AD
00000D90
FFFFE090
00000902
FFFFDB29
FFFFCF77
000016D8
000001BB
FFFFF1B7
FFFFF323
000023C1
0000170B
FFFFE215
00000CF9
0000140D
FFFFF5E2
FFFFEC0D
00001ED9
000008BA
FFFFE831
00001272
000018A6
FFFFD615
00001E1B
00000135
FFFFEFB0
FFFFF959
000015DE
00001A67
0000255F
00001112
000006F3
FFFFEDA9
FFFFEA4E
FFFFE244
00001298
000002C6
FFFFE039
000005AF
FFFFEEAD
FFFFF0EB
00001795
FFFFF28B
0000157B
000018B7
00001478
FFFFFFBB
FFFFFD0F
FFFFDAF0
FFFFFACF
FFFFE550
FFFFF58C
00001567
00001584
0000155A
0000202D
FFFFD743
FFFFF1D9
FFFFFB78
FFFFF5DB
00001467
FFFFE4BA
FFFFE598
FFFFE292
FFFFF3C3
FFFFF247
FFFFFBEE
00000C01
00002152
00001CB8
FFFFFE88
FFFFFADC
0000103C
FFFFF2C6
00000247
FFFFE906
00001D78
0000159C
FFFFEA32
000001D3
FFFFEAA4
FFFFFFD4
FFFFFD82
FFFFFB64
FFFFEFC7
FFFFFAC2
FFFFFD61
FFFFF8F5
FFFFEFA2
00000BBE
00001985
FFFFECC2
FFFFDF70
000010E4
FFFFF25E
FFFFF15F
000004D3
00001DF1
00001C20
FFFFE7CA
FFFFEF85
000004F4
0000187B
FFFFF850
FFFFEFDD
FFFFF8D9
000015A1
00001A8C
FFFFDC9A
FFFFE408
00000EF8
FFFFE5DF
00001240
00000D72
FFFFF321
FFFFE296
FFFFF95E
00000525
FFFFE4DC
FFFFF923
FFFFF3AB
00001DF5
FFFFF922
00001D1A
00000DA8
00000CBC
FFFFF3D4
FFFFFFB7
00000041
00000ADF
00001BC9
FFFFFB9D
0000196F
FFFFFFDC
000008C2
FFFFF014
000006AD
000021B8
000000D1
FFFFDCEE
FFFFE44E
0000108D
FFFFF349
00001C0C
0000083C
FFFFDE8E
000015B7
FFFFEB86
FFFFFF79
FFFFFD71
0000141A
FFFFE5FE
00000570
FFFFF43A
00001340
FFFFF099
0000198D
000005C8
000005E9
000006AE
FFFFFDA1
FFFFF09D
FFFFDD75
FFFFF34D
0000145D
00000A39
FFFFF283
FFFFD9B1
00001706
000029ED
FFFFF397
FFFFDFE0
0000169D
00002839
00000972
FFFFEB91
FFFFE3D0
FFFFFD2A
FFFFF22A
000012AB
FFFFE3DD
FFFFFCED
00001668
FFFFFE5A
FFFFDA0C
0000182E
00001521
FFFFE924
FFFFE830
FFFFEF47
FFFFE8F7
FFFFFB6C
FFFFE1D7
0000225D
FFFFFE6F
00002F01
00000800
0000092E
0000032D
FFFFEB90
FFFFE202
FFFFFD34
FFFFDFDD
0000106E
00000ED9
00000292
00000957
0000056F
00000AF6
00000FEC
00001150
0000188B
FFFFF5A7
0000185D
FFFFEDFB
FFFFE03E
00000E8E
FFFFFCB4
000008D4
FFFFF173
00000C51
00001B43
0000043B
FFFFEC67
000013E0
000017AD
FFFFDF48
00001C79
FFFFFE43
FFFFE7F2
FFFFEB18
00001BAC
00001C06
0000129D
FFFFFBC2
FFFFFA34
FFFFE6FC
0000182E
FFFFF2E5
FFFFF987
FFFFE748
000004BD
FFFFEE46
00001E8A
FFFFEE91
00001555
FFFFF2B3
000000FB
000009FE
FFFFD9EB
FFFFDE00
00000A3F
FFFFEDB9
FFFFE129
00000ABE
FFFFE12D
FFFFF7E8
FFFFF868
FFFFD838
FFFFE9FD
0000066D
00000C6C
FFFFF586
000012CA
FFFFE0DA
00000470
FFFFE710
000000A3
00001AB6
FFFFF27F
FFFFE214
00000012
FFFFE08B
00001BF8
FFFFDFE8
FFFFF8FE
000001CA
FFFFECA5
FFFFF5BA
FFFFFC63
FFFFFCAC
000023D4
FFFFDB60
FFFFDA17
00001339
00001629
FFFFE934
FFFFD70F
FFFFE67E
FFFFD299
0000123D
000005FE
00001C4F
FFFFF479
00001B74
00001560
00001993
FFFFE154
FFFFFC83
00001757
0000114D
00000BA0
00000589
FFFFE7DF
00000BC8
FFFFE217
FFFFFF0F
00000F7D
00000A13
FFFFFB9A
00001780
FFFFEDFB
000005FC
FFFFF5A1
FFFFE767
000017F3
FFFFDB42
FFFFE748
000025F9
00000F4D
000021FB
0000091C
FFFFF080
00000AF4
FFFFF2C0
00001077
00000E95
FFFFE7D3
00000E60
FFFFDEE1
FFFFF4A3
000006D0
FFFFDEB0
00000D02
FFFFD674
FFFFEB7D
00000291
FFFFE3D6
FFFFF8DC
00000212
00000861
FFFFE2C4
FFFFF3AE
0000038E
00000E6E
00000C07
FFFFDA8F
FFFFF68E
00000FEC
FFFFEFEB
00000842
FFFFD4C7
FFFFF4EC
000011E6
FFFFE5E6
FFFFE6BD
00000ED3
000027C8
00000556
000006C0
00001153
000029ED
FFFFE7C5
FFFFFA95
00001A1E
FFFFE622
00001174
00000208
FFFFEAEA
00000F47
00001AE9
00000E71
FFFFFEB2
0000170F
FFFFFA08
00001E2C
FFFFF2D0
00001069
FFFFFE39
FFFFFD54
00001467
00001190
FFFFDD5D
00000053
FFFFFCBB
00000174
FFFFF61D
000000A2
FFFFF5C0
FFFFF7D1
FFFFEA57
000001E0
00001A74
000006D9
00000688
FFFFD908
000013AB
0000008D
00000075
00001F7C
00000890
0000004D
000017D4
FFFFD469
00001314
FFFFD9D8
00001E83
FFFFDF2F
00001051
FFFFF994
000008CD
0000002E
FFFFEF4D
00000994
FFFFE6F4
000026E0
FFFFE50D
FFFFE035
000011C4
FFFFEC3C
FFFFE196
000017D7
FFFFE55E
FFFFED65
FFFFE9B7
00000996
00000BEE
FFFFF1D9
FFFFE9A5
FFFFE71E
0000147C
FFFFED14
00000FA6
FFFFF896
00001D34
FFFFDF28
FFFFD908
FFFFEDF3
000004FE
00001429
0000084F
0000195B
FFFFE1A2
FFFFE215
000002C8
000005CA
FFFFEB5D
FFFFE908
FFFFE142
0000011F
FFFFED44
FFFFE2BB
000012EB
00001C9B
FFFFFCDF
FFFFE82C
00000A4A
000008F5
00000B3D
FFFFE02F
FFFFEBAE
00001477
000007E0
00001ED2
00000051
FFFFFA61
00001002
FFFFDBFC
FFFFF0A0
FFFFE471
FFFFFA62
FFFFDC7A
0000151A
FFFFE8DF
FFFFDC77
FFFFEFA4
00001FC9
00000645
FFFFEB09
FFFFE962
000017A5
FFFFE7A2
00000C78
0000042B
00002073
00000973
FFFFEEC2
FFFFF613
000014A6
00000570
FFFFEEF1
FFFFDFF1
FFFFE99C
000014B8
0000172B
FFFFE4D2
00000507
000010DC
000007B2
FFFFE408
00000C82
FFFFE6AF
FFFFD91A
FFFFFB1E
000015EA
00000C7E
000002E5
FFFFEB41
FFFFEE93
0000150D
0000059C
FFFFE071
FFFFFF4A
00001EDA
FFFFFDF6
000000FC
000021BD
FFFFEDEB
FFFFF8B8
FFFFEFF4
0000130F
FFFFE79B
FFFFE494
FFFFEDCF
0000075C
FFFFFF3E
FFFFF0CD
FFFFEFC2
FFFFEA72
000000DF
FFFFF237
00000037
FFFFF736
FFFFFE84
FFFFF5F9
FFFFFDE1
FFFFF259
000010C1
000012C6
FFFFE4DB
FFFFFEC8
000018DB
00001619
FFFFE663
00001C4B
000009CF
00000B17
FFFFED57
FFFFD998
00000EF7
FFFFFEDE
FFFFF35A
00001606
0000061C
00001058
FFFFF214
000015BF
00001B01
FFFFF19B
00000E6B
00001C31
FFFFE44C
000019A4
FFFFFEA3
00001AB8
FFFFFDE3
FFFFF5D5
FFFFEA7C
0000106B
FFFFEDAB
00001179
00000C04
FFFFDBF8
FFFFF928
0000164E
000006F1
FFFFF9EB
00001725
000008FC
FFFFDEFE
FFFFEA33
FFFFE448
FFFFF58B
FFFFDF98
FFFFEEA0
FFFFF342
FFFFE7FB
0000024B
00001B31
FFFFECB4
FFFFFBA3
00001089
FFFFE6E5
00000F5B
FFFFE0AA
FFFFD90F
00001333
FFFFED85
00000F24
00000F66
FFFFDEA0
FFFFE8B7
00000E01
FFFFFB7E
0000215A
00001AAC
000013A0
FFFFDD83
FFFFF443
00000DA8
FFFFF827
00000893
FFFFE161
FFFFE5BA
FFFFEAA4
FFFFE2DB
0000120E
FFFFF824
FFFFD64D
FFFFF397
FFFFF87C
FFFFFBD6
FFFFDF18
FFFFEC37
FFFFF967
00000EBC
FFFFE364
00000CDA
FFFFFC28
0000087B
000007F9
FFFFDCC2
FFFFEF52
FFFFF4C2
000014B9
FFFFE9B7
00001FB1
00000A98
0000123C
0000027D
FFFFFBF0
00000163
FFFFF58A
FFFFD9F3
FFFFEE26
FFFFEFF9
0000123A
000010B0
FFFFE5DC
000006B8
FFFFF042
000012B8
0000198D
FFFFFD63
00001F13
00001C66
000020F6
00000593
000016D0
000021AF
000019E2
FFFFEEC7
0000013E
FFFFFD61
0000141D
000008C1
FFFFF9D5
FFFFFE95
00000B02
00000FF1
00001A90
00001657
FFFFE89F
00000247
0000178F
000015AB
0000035C
FFFFEFA6
00001B9F
FFFFF578
00000C4D
00001A79
FFFFE119
FFFFD7F8
00001126
FFFFD512
FFFFE276
00000D1D
00001435
FFFFE024
000019B9
00000348
FFFFF71D
00000624
FFFFF9AD
FFFFF0EC
00000BB7
00000C09
FFFFFB82
00000D6F
FFFFDB44
00000E62
FFFFF71D
FFFFE9A1
000009C2
FFFFFAB5
000014EE
00000322
00000353
FFFFF942
00000943
FFFFE441
FFFFD919
000011E5
00000E57
00000CC1
FFFFE9F0
000014BE
00000033
FFFFEDA6
FFFFE5C1
00001690
FFFFF127
00001A7F
00001A31
FFFFE85C
FFFFEBC7
FFFFD80F
FFFFF22F
FFFFE5D5
00001158
000012C9
00001B49
0000047F
0000063C
000018F9
0000023D
00000A53
FFFFF110
0000143A
FFFFE4E3
00000F4E
000011AB
FFFFFB1B
FFFFF57C
FFFFE7EF
000021CE
00001396
FFFFF1AB
FFFFE0AD
00000D0C
FFFFF1E5
FFFFF292
FFFFDED3
00000069
FFFFF52C
FFFFECC5
FFFFF67B
00001A23
FFFFECBB
FFFFE57B
FFFFF94D
FFFFE950
00001967
000008C7
000011B1
FFFFE72A
00000571
00001898
00000B20
FFFFD851
0000029B
FFFFEBE4
FFFFEE90
FFFFE755
FFFFF334
FFFFEF38
000002F1
FFFFF491
FFFFE1A8
000015C2
000015F5
FFFFF271
00000BE7
000014E8
FFFFE44A
00001618
FFFFD859
FFFFF409
FFFFE8BD
FFFFD6C9
FFFFF5DD
FFFFFC72
000025CD
00000E4E
00000B08
00000893
00001BB1
00000598
00000C0B
00001B88
00000D55
FFFFFE4A
00000617
FFFFEEA6
00000F65
00000A84
FFFFFBC9
000019B2
FFFFF65E
00001636
FFFFE07D
FFFFE0B8
000016FA
FFFFEDAD
0000088B
FFFFEF93
FFFFDF04
00001ADD
FFFFE3C3
FFFFF94B
FFFFE89B
FFFFECFE
000003EE
00002217
FFFFE6DE
FFFFDEC4
0000055C
FFFFEA61
FFFFDD8F
FFFFFC81
FFFFFE47
FFFFF02E
FFFFE437
000017EC
00001583
00000063
000012B8
FFFFF6FF
FFFFF428
0000016D
00000EB3
FFFFE73F
FFFFEDFE
FFFFDD8C
FFFFE6F3
00000618
FFFFF583
00000A54
00001CB6
000015B0
FFFFD8C7
FFFFE1A2
00000082
FFFFDB69
0000136D
FFFFE3F0
FFFFEBBD
FFFFE564
FFFFF623
0000113E
0000074D
000019D0
00000E69
000005C3
FFFFEAC0
00001DC7
00001077
FFFFF664
FFFFF93A
FFFFE2D3
FFFFFBEB
00000226
FFFFE82B
FFFFE5A4
FFFFF310
FFFFE543
000012CC
00001571
FFFFEA00
FFFFE9D7
0000095E
FFFFE309
FFFFFAC0
000013B2
FFFFE2A4
00000E81
FFFFE206
FFFFF6BB
FFFFD91E
000014E0
FFFFDF1F
FFFFD79F
FFFFEDF7
FFFFE2C3
FFFFE838
000013CA
FFFFF6C4
FFFFF327
00001720
00000DFB
FFFFFC5E
FFFFE895
00000E4E
FFFFDCDF
00001746
00001B8C
FFFFE239
00001562
FFFFEABE
0000017A
FFFFF896
000013C8
00000AB6
FFFFE973
0000123F
FFFFFF2A
FFFFE0CA
00001E3E
FFFFFC12
FFFFD6E4
FFFFF76C
0000145A
FFFFF054
00000A4B
000014C2
00000CA0
000002E6
00000644
00000719
000006EA
FFFFECCC
00002264
FFFFE952
FFFFFEBC
FFFFFC9A
000020B1
FFFFF197
00000E1C
FFFFDE1D
000007A3
FFFFCFA3
00001628
000009DA
0000050E
FFFFF457
FFFFE7ED
FFFFD847
00000751
FFFFFE55
00001F16
00001320
000008AF
FFFFF87A
00000C39
00001F7F
FFFFF134
FFFFFABB
00000B60
00001659
FFFFE3EB
FFFFF38E
00001741
00001C5F
FFFFE942
FFFFFA37
FFFFD3CB
000011D3
00001526
FFFFF908
FFFFF5E3
000000FE
000012D7
00000E0C
00001AFB
00000CA4
FFFFF8C9
FFFFE421
000001B7
FFFFF769
00001255
FFFFE3B6
FFFFDB36
FFFFEAE2
0000196C
FFFFF0A8
00001518
000004D5
FFFFE9B7
0000176B
FFFFFD0C
FFFFF86E
FFFFF013
0000067B
00000E35
0000067B
00000CFC
00000CD2
FFFFE868
FFFFEBE7
0000018C
00001BB1
FFFFFA90
00000816
FFFFEA1A
FFFFEB76
FFFFF77F
00001177
FFFFF4C9
00000F94
FFFFE522
00000CA4
FFFFF1B7
00000371
FFFFF427
FFFFEA63
00000169
0000028A
FFFFF04D
FFFFDF79
00000E01
00002F34
FFFFD827
FFFFE82B
FFFFE6C6
FFFFE24A
00000FC1
00000BA5
FFFFED05
00001571
00000DFD
FFFFE90C
FFFFD108
00001964
000016CA
00001A1B
000002D8
FFFFFB87
FFFFFECA
FFFFE87E
FFFFFA29
FFFFFB86
FFFFF23D
0000147D
FFFFE45E
FFFFEBF2
0000029C
00000A54
FFFFF01B
00000515
00000311
00000960
00002266
0000130B
FFFFD6A7
FFFFF37B
FFFFEFA9
00001CAC
FFFFF99C
0000171C
00000318
000017D8
00001CF0
0000079B
FFFFE366
00001B4B
FFFFFDE7
FFFFF19E
00001BA2
000016B2
FFFFEBD8
FFFFD2F7
FFFFFA55
00000632
FFFFF94A
000008ED
FFFFDBCD
00000D86
FFFFEDB9
00001D55
FFFFDEFC
00000E37
000004AC
FFFFE681
00001E1B
FFFFF29B
FFFFE85D
FFFFE0C9
00001797
FFFFE5B0
000016F9
FFFFF0C4
00001456
00000EE3
FFFFF19F
FFFFE3F8
00000C2C
FFFFED8E
0000038F
FFFFF275
FFFFDF78
000013E9
0000178B
FFFFDEB7
00001789
FFFFEA1B
000009ED
00001342
FFFFED97
FFFFF599
000010EB
00001A78
00001D39
FFFFF399
FFFFECC3
FFFFE73E
00001F2D
FFFFFEDF
00000D8E
0000056E
FFFFE83E
FFFFF5B2
00000451
FFFFF6B8
FFFFDEE9
0000106E
00000F8D
FFFFEECD
00001B61
00000AA3
FFFFEAB8
00001472
000000E2
FFFFFADA
00001ED2
00000F0C
FFFFF225
0000225D
FFFFFCCE
0000175E
FFFFE4C5
FFFFD6F3
FFFFDD5C
FFFFDEF7
0000021A
FFFFF479
FFFFDFBA
00001953
00001D08
FFFFE3AE
FFFFEE30
0000094F
FFFFF173
FFFFFAC2
00000E3A
FFFFE821
FFFFF321
00001181
FFFFF14D
00002258
FFFFE55F
FFFFF0B4
00001C7A
FFFFE481
00001C50
FFFFEA3B
000012B2
00001CA9
000005AE
FFFFF4D2
FFFFF635
FFFFEA3D
0000153D
00000AC3
00000DA1
FFFFF3EC
00000EB0
FFFFE683
FFFFF11A
FFFFE941
FFFFE5B5
000001F5
FFFFFC8B
000013B5
FFFFFC3E
FFFFFCEC
00000123
FFFFF920
00001B65
0000146A
000019D1
FFFFF311
0000158D
00001BA5
FFFFF4F7
FFFFF930
00001938
00001A7F
FFFFF52B
000013CD
FFFFEF9A
FFFFFA9D
00001465
00001238
000010D2
FFFFE0EB
FFFFE249
FFFFE4A3
FFFFE5FD
FFFFE9D9
FFFFDBCB
00000393
FFFFEE06
00001E04
0000047B
FFFFF751
FFFFF64F
00000BCF
00000BD6
0000250E
FFFFDB36
FFFFF46E
00000D51
FFFFF7F8
FFFFF656
FFFFFF62
FFFFF94C
0000142D
00000786
FFFFE397
FFFFDA4C
FFFFFDEA
00000C50
00000D6C
FFFFE024
00000697
FFFFEBB9
FFFFDEA9
00001540
0000111D
FFFFF951
0000082F
FFFFFF24
FFFFDCDF
000006AD
FFFFE01F
FFFFF576
0000073A
FFFFF0FB
FFFFFFE2
0000133A
FFFFDCBE
FFFFE307
FFFFEC16
FFFFF797
FFFFFC68
00001EA2
0000159B
FFFFFD64
FFFFEF5E
00000A30
0000182B
FFFFE189
000021B3
FFFFF55F
FFFFF519
FFFFDE3D
00001AEB
0000267C
FFFFF241
00000485
00001C15
FFFFF032
00001DE5
00002603
FFFFEAED
00000403
FFFFE153
FFFFF66D
FFFFE0C1
000010F3
000014C2
00001C02
FFFFEF82
00001961
FFFFEB6B
00001A09
00000B00
FFFFEB1C
00000637
000019D1
000001E8
FFFFE04E
FFFFEF55
FFFFE1C9
00001119
00001A0B
0000253F
000009F2
00001814
000001E1
00002865
00000EAB
FFFFD20E
FFFFFD16
FFFFE1C0
FFFFDB85
0000005B
00001922
0000187C
FFFFDD38
FFFFD725
FFFFFC1E
FFFFFDF0
FFFFFB8B
0000162B
FFFFFB60
FFFFEE97
FFFFF6C1
FFFFFE69
FFFFFCA3
FFFFD836
FFFFDBBC
FFFFDCC4
FFFFEBB6
00000292
FFFFE36C
00001398
00000EBC
00001518
FFFFECE1
00000C93
FFFFFC9C
FFFFD91C
FFFFF64B
FFFFF521
FFFFDB71
00001B35
00000A03
000014B7
000004FB
00000B94
000017DC
0000100B
00001BA1
FFFFEB66
00000543
00000109
FFFFFBDB
000015AC
FFFFFBFE
0000008A
FFFFEE80
0000014B
FFFFFA1F
00001B21
00002427
00001343
FFFFFE07
FFFFF8DB
00000DCB
FFFFE763
00001752
FFFFF589
FFFFFE8A
00000168
00001557
00001D30
FFFFFD0E
FFFFFB3E
000007E9
FFFFE7E8
FFFFF594
00001570
FFFFEECF
FFFFF3E5
00000144
00000ACF
FFFFE9E6
0000091F
FFFFE830
FFFFF679
000003AB
FFFFE6EF
FFFFF6D3
FFFFF7F1
000019EE
FFFFF836
00001445
00000A37
FFFFFFCE
FFFFEB47
00001CD0
FFFFFB96
FFFFFCCF
000008B6
FFFFDB34
FFFFF4AC
00001F4D
000018EC
00000EED
00000100
FFFFED30
FFFFDB46
FFFFFE09
FFFFD6F1
00001210
FFFFFE84
000010A1
FFFFDD6A
00000818
FFFFF852
0000057C
FFFFFAE7
00000CD7
FFFFEACD
00001506
FFFFF8AE
FFFFE2A5
FFFFFEDF
0000173D
FFFFE116
FFFFF332
FFFFEFEE
FFFFFB18
FFFFEE60
FFFFF162
FFFFF43F
0000170D
00002009
00001766
00001D58
00001828
00001244
000013FE
000016DF
FFFFEF89
FFFFE3C8
FFFFEA24
00001888
FFFFFD75
FFFFE146
FFFFED19
FFFFEEF6
FFFFF6FD
FFFFF6DA
FFFFFB40
FFFFDB84
FFFFE099
000008E0
00002327
FFFFEFC5
0000222A
FFFFE012
0000071E
000014E8
0000146E
0000168D
00001937
0000157C
FFFFD9E7
FFFFF775
FFFFFF76
000019B6
FFFFEE32
FFFFF96F
000000C3
FFFFDE61
00000281
FFFFE88D
FFFFF710
00001691
000000EF
FFFFE49E
FFFFE9B3
0000111A
00000040
00000F18
FFFFEFF5
FFFFED2F
FFFFF75E
FFFFEE4D
000002D9
000014D8
00001C22
FFFFF9B1
00001555
FFFFD277
FFFFFD6A
FFFFE3E1
FFFFF60C
FFFFFFD4
FFFFF3BB
00001780
00000F69
FFFFFBCD
00000FC7
00000334
FFFFFCC4
FFFFF23A
FFFFF00D
000009FA
FFFFECF8
FFFFF945
FFFFF0B1
FFFFE40B
FFFFE470
00001CE6
000012A2
FFFFEDEE
FFFFF8E0
FFFFE842
000011F3
00001708
FFFFDCE9
FFFFF49D
00000AE2
FFFFFD5F
00001C4F
00000EF8
00000398
000012AA
00001AA1
FFFFEF31
FFFFF576
00000742
000024E9
00000384
00001EAD
000016F6
00001590
FFFFF750
FFFFD435
FFFFE49D
0000103C
FFFFE409
00001198
FFFFE38E
0000018B
FFFFF1C6
FFFFF27D
00001579
0000045F
FFFFD808
00000136
FFFFFDD4
00000B89
FFFFDD5D
FFFFDB92
FFFFE763
FFFFDB02
FFFFD8AC
FFFFF349
FFFFEE67
000000A1
FFFFD856
00000BAA
FFFFEDDC
FFFFF175
000003EC
000009FB
FFFFECD2
0000114B
00001AB8
FFFFE151
00001538
FFFFE778
FFFFFF22
00001AE3
00002111
FFFFEBA7
FFFFDFA3
FFFFEBB1
00000DA5
FFFFFD3A
00001ED4
FFFFE619
FFFFEC7F
00000B35
000014D0
00000BFE
FFFFE67E
FFFFF2AB
000001E0
00001511
FFFFE682
FFFFDA73
000006AF
00000452
00000590
00001792
00001175
FFFFE49C
000010E9
FFFFE3E3
00000C4A
000005EE
FFFFEDFF
00001549
FFFFE7BF
FFFFFDA8
00000699
FFFFEE73
FFFFFDD5
FFFFEAA5
000014FD
00000635
00000190
FFFFEEBB
000011E3
00000793
FFFFCB1D
FFFFF755
00001876
FFFFDC57
FFFFE8A2
FFFFE998
00001264
FFFFE77D
FFFFF015
FFFFD2DC
000007CF
FFFFF025
FFFFE21D
0000039D
FFFFEDAB
FFFFE819
FFFFEE67
000010BD
00000E8B
FFFFFC00
00001874
00001719
0000078D
0000230E
00001E1D
00000695
00000AAD
FFFFE7DD
000019B4
FFFFF86C
FFFFD987
FFFFEF2F
FFFFF25B
00001934
FFFFECB6
FFFFFABA
00000C71
0000050F
00001DD6
00000F21
FFFFE88C
00000696
FFFFEB89
FFFFE866
FFFFFE95
FFFFF08C
0000167E
FFFFF024
00000949
00002163
0000069D
000001FD
0000155C
000003E5
00002513
00000573
00000C6E
0000274E
0000209D
000020FB
00001BAE
FFFFF12E
00000ADB
000005F5
00001989
00000635
FFFFEC8E
00001334
FFFFD367
FFFFDE05
00000CDD
FFFFF602
00001DA2
0000148E
FFFFFBD2
00000D32
00000FDF
FFFFEE38
FFFFE469
FFFFFB8A
00000052
FFFFFF36
FFFFFE06
FFFFEEED
FFFFF6E3
FFFFF373
00001ADF
0000022D
000012DA
FFFFDBFF
FFFFFA33
000017D0
00001697
FFFFEED3
FFFFE4B9
FFFFEABE
000007EF
000003E0
000016A4
000014EA
00001335
000006E7
FFFFEE6E
00000486
0000187D
00000026
000017CC
000016B0
FFFFF207
00001A52
000011CF
FFFFD7B0
00000276
FFFFFA70
FFFFFE63
000007AB
FFFFEC45
FFFFFEC2
FFFFE725
FFFFF440
00001DFA
00001C10
00001607
00000E8B
FFFFFEB1
00000F59
FFFFEE3E
FFFFF6BB
00001BC2
00000D4D
FFFFE0AB
FFFFFBC8
FFFFEDDC
00000105
0000108D
FFFFF895
000006DD
0000179F
FFFFE81A
FFFFFAA5
FFFFFCC2
00001030
000017B8
FFFFEE1E
000006D0
00001384
FFFFF044
00001C2E
FFFFE48D
00000480
FFFFFF8D
00000B45
FFFFF595
FFFFD72C
00000C4D
FFFFE5E3
FFFFDFFD
FFFFF993
FFFFED23
FFFFF6C8
FFFFE97D
00000250
FFFFEB46
FFFFFAA6
000020DB
FFFFF22F
FFFFE57E
FFFFFBCF
00001A1B
FFFFF813
00001C79
00000BAA
000014EA
00001144
FFFFFD55
0000082C
0000050E
00002013
00001BB1
FFFFE37E
00001B37
00001820
FFFFFD87
000002BF
FFFFEAD7
FFFFD7AD
FFFFF8C2
FFFFEF11
FFFFF649
00001A46
000015DE
000017A2
00001093
00001ACD
FFFFFE65
FFFFD901
FFFFFFC5
FFFFEC4C
00001B48
FFFFE323
FFFFEFD3
FFFFEC09
000003E7
FFFFF1B3
00000AE6
00001526
00000C18
0000266B
00000076
FFFFE3F6
0000183D
0000193A
FFFFE085
FFFFFD74
0000129F
FFFFF5DB
FFFFEDD0
FFFFEB86
00000389
000005BE
00000FC0
00001528
00000BBB
000016B7
00001993
FFFFE3F4
FFFFE3FE
FFFFD1D5
FFFFF5A2
000000E7
00000367
00000A77
00001710
000001C2
00000926
00000528
FFFFF702
FFFFED60
0000180D
FFFFEB87
FFFFF8C5
00000A9B
FFFFF185
FFFFEBC8
FFFFE4AB
FFFFF804
00000557
00000766
FFFFDC7F
FFFFE8E1
00001AC8
00002490
FFFFEB6C
00000D97
FFFFDFD6
FFFFED79
00000D43
00002457
000019CB
FFFFEE65
FFFFF1FD
000018F2
FFFFFAA5
00001A43
00000AD7
00001572
FFFFE2EE
00001B68
FFFFF68E
FFFFE80F
FFFFE8EF
FFFFDAC8
FFFFE07C
FFFFF8CB
000006D4
000014F7
00001540
00001543
FFFFF38B
000009A2
00000C56
00001406
00000C0E
00000180
FFFFE2CD
00001451
FFFFFFFF
00000EC2
FFFFF067
FFFFE4B2
FFFFF20A
FFFFF36C
FFFFDE1B
000007EC
FFFFFFEE
0000151B
0000010A
000013A1
0000008A
0000053F
FFFFFF78
FFFFEEB4
FFFFEC92
FFFFE1FD
FFFFEB77
000010CB
FFFFFC7D
FFFFF33E
00001632
FFFFF7DC
00001DEC
FFFFF1FC
000013D9
FFFFEEA6
00001248
FFFFDD56
FFFFFF59
FFFFEBFA
FFFFEDA0
00000C50
FFFFF240
0000156E
00000AE5
000010A1
FFFFE081
00000CEA
000001A2
FFFFFFEA
00001921
00000031
FFFFF0ED
000015C9
00000032
000021E7
FFFFEDF1
00000139
FFFFF967
FFFFED46
FFFFF3CD
00001045
000014ED
FFFFE4DD
00001C12
FFFFE607
FFFFDD0E
FFFFFF97
FFFFFDF9
FFFFF160
FFFFDDE3
FFFFF377
00001070
FFFFE43A
00000E87
00002140
00000798
FFFFE35E
FFFFFB1B
000014AD
FFFFF4C1
00000F73
FFFFD9B8
000017A1
FFFFEA8A
FFFFDB1E
00001CA2
FFFFE201
FFFFF9E5
FFFFEE9C
FFFFF5D0
FFFFFA55
FFFFF64C
0000254F
0000068A
00000CDD
FFFFFAE3
FFFFF4BA
0000223C
00000E2D
FFFFE742
00000F93
0000186F
FFFFDC61
FFFFED3F
FFFFFF23
FFFFEE32
FFFFFB84
00000F83
FFFFD60A
0000100E
FFFFF193
FFFFEB04
FFFFE74E
0000250A
00000A2A
FFFFF40D
000002A6
FFFFF62D
FFFFEC23
00000A0A
000016A2
0000096E
FFFFE7E8
000022C1
00001770
FFFFEA96
00000303
FFFFE053
00001040
00001B71
FFFFE843
00001CDD
FFFFEECE
FFFFE60F
FFFFD83E
0000143A
000013A6
000012EE
0000098D
00001C4D
00000775
FFFFE745
FFFFE1EC
FFFFE9B5
FFFFF14B
FFFFEA8A
00000EF6
FFFFFE10
00000A0A
FFFFE746
00000A50
FFFFDE9F
FFFFF951
FFFFE850
FFFFEBF1
00001E9C
FFFFF50F
FFFFD9C8
00000BAA
FFFFFC56
FFFFE41A
FFFFF8CA
FFFFE4A6
000012A6
FFFFF113
FFFFF508
FFFFEA14
FFFFF5E5
FFFFFF24
00001FB8
FFFFEF97
FFFFFC29
00000805
00000415
FFFFF064
FFFFE9BE
00000778
00000B00
FFFFFA4F
FFFFDE53
00000333
FFFFE7AA
FFFFE1F8
00001A85
0000106F
FFFFE6C6
FFFFF1E2
00000C5D
FFFFF90B
0000056C
00000168
FFFFDD05
FFFFFCBA
00002045
FFFFF421
FFFFE4F9
00000B31
00001B9B
00001471
00001636
00002360
000006E0
FFFFEA27
00000835
000010C3
000004AB
00000CA7
FFFFEBA6
00000753
FFFFE918
00000489
FFFFE5F6
FFFFE70D
FFFFE32E
00000CAD
00002076
FFFFFDE6
FFFFFCE8
FFFFF06A
FFFFF652
FFFFEA79
FFFFE5C7
00001AD2
FFFFE72C
000012C0
FFFFF27D
FFFFF043
FFFFE957
FFFFFF7E
00000473
FFFFE9A0
FFFFF4BC
00002476
FFFFF2AE
00002547
000003C1
00001E1A
00001A67
0000174D
00002673
FFFFFAC5
FFFFECE0
00000CBE
000018DD
00001A3C
FFFFE566
FFFFF2AC
FFFFF06D
FFFFFCFC
FFFFF5AD
00002A74
00001E99
00000D3B
0000146C
FFFFDD04
00000FC7
0000140E
FFFFEB3E
00002144
000000FA
FFFFF1B8
00001330
000019A2
FFFFDEEB
000016E1
FFFFFAE7
FFFFECE4
FFFFFC50
FFFFCA94
00001477
FFFFEF9D
0000176E
00001E3C
FFFFE38E
FFFFFCB6
FFFFE902
FFFFEF0B
FFFFF4C1
FFFFE384
FFFFFF4C
000004DA
000007D6
0000008C
00001E49
FFFFFE1C
FFFFE45E
000017F9
00000CC0
00001CE8
FFFFDC15
00000218
FFFFF622
00001A27
0000020B
00001498
000003CA
0000089A
00001421
FFFFF729
00000070
FFFFD7E3
00000E14
FFFFFE35
00000277
00001242
FFFFF1D2
00000602
00000461
FFFFE35F
00000791
00001A24
00001BAB
000012D7
FFFFE6F7
FFFFF003
FFFFE238
00000181
FFFFED5E
FFFFE0A1
00001228
000006AD
FFFFF015
00000002
00000734
FFFFE8E7
00000206
00001C25
000019C1
000013D6
FFFFF48A
FFFFDBB9
FFFFF419
00001BB3
FFFFE60E
000016A3
FFFFDCAD
00001A40
FFFFEFF8
FFFFEEFA
00001CFB
FFFFF572
FFFFFC11
FFFFFA7B
FFFFF134
0000016C
FFFFED6E
FFFFE9F0
FFFFEB66
000008E5
FFFFE972
FFFFF710
FFFFF711
00001CA0
00001C7B
00000F96
FFFFF132
FFFFE85F
FFFFF98E
000007F2
000016EF
00001AB5
FFFFEEFE
FFFFE7FD
FFFFF750
000001A4
FFFFE8A2
FFFFF633
0000020B
00001EBD
FFFFEBC2
00000142
00000194
FFFFEFD9
0000005C
00001D92
FFFFE65E
FFFFEA19
FFFFF489
FFFFE80F
00000D38
FFFFD849
FFFFDFE7
FFFFF14E
FFFFF6B6
FFFFE857
FFFFDC98
FFFFE35E
FFFFD4C5
000007B7
FFFFEF33
FFFFCD1E
FFFFD9B7
000013F2
FFFFFA8B
FFFFEFB3
000001CD
FFFFDF28
00000CB9
000023B9
FFFFF567
000005C7
000019C7
FFFFEE99
FFFFE149
00001A86
000015DC
00000AD4
FFFFD563
000017EF
FFFFE52C
00001F47
FFFFEF22
FFFFF26D
FFFFEB03
00001B76
FFFFE5D2
000012DF
FFFFE3F8
FFFFD6D7
00001B6A
00001D90
FFFFE71B
000010A9
FFFFF7D5
00000F34
FFFFFAD6
00000F35
00000114
00000A97
000015C9
FFFFE6F8
00001DE0
00001A92
FFFFE7AC
00001B19
FFFFF7A4
00000F25
FFFFE14C
FFFFEA4F
FFFFEE59
000008A2
FFFFDFB4
FFFFDEDC
FFFFEB2B
FFFFF57A
00001818
FFFFF965
FFFFE7A2
FFFFFC28
FFFFF0C0
000009DA
000002EC
FFFFED84
00000BB2
FFFFFF95
FFFFE6BD
00001884
FFFFEA1C
00000B6F
00000EA4
00001C48
FFFFFE55
00001D8D
FFFFEE73
0000117B
000010B5
FFFFFCAC
0000173B
FFFFE2B7
FFFFE718
FFFFEBB9
0000130A
FFFFE097
FFFFE209
FFFFEF42
00002347
FFFFF6EB
FFFFFAA9
00000EC1
FFFFFD33
00000023
0000108B
FFFFF04F
FFFFEE50
FFFFDE41
FFFFD988
000022E5
0000042F
FFFFF5E0
FFFFF295
000003CD
FFFFE699
00000361
000014A7
FFFFE722
0000192A
FFFFED77
FFFFEFB0
00000298
FFFFEF01
00001DF1
FFFFDDE9
FFFFF719
00000179
FFFFFC15
FFFFF9EA
00001A0B
FFFFF717
FFFFD4B1
0000014E
FFFFEA27
00000AD2
00002028
00001167
FFFFFC99
00000E7A
FFFFF961
00001D6B
FFFFEDD6
0000177F
000011AF
00000634
00000379
FFFFE5AA
00002154
00000883
00000125
00001E3B
FFFFDCBA
0000166A
FFFFE4F5
0000097F
FFFFEF47
FFFFDBF7
FFFFE427
00001A76
FFFFE7E3
0000001A
FFFFDB08
0000048E
FFFFEE9C
FFFFDE4B
0000132E
FFFFF2EA
FFFFF229
FFFFDEF4
00000390
00000FC6
FFFFF1C5
FFFFE5C6
FFFFE80F
00001627
FFFFD732
FFFFDB02
FFFFE53C
FFFFF997
00000102
0000063D
0000173B
FFFFD61E
00001347
0000190E
00001E94
FFFFEB10
00001A80
FFFFF82D
FFFFF762
FFFFF6E2
FFFFE4B6
FFFFF7A3
00000680
FFFFFBBB
FFFFF80E
FFFFDFA5
FFFFD4B1
FFFFE7D5
FFFFF14B
000003DD
000015E6
FFFFE9D2
FFFFE7DF
00000F3A
0000155F
FFFFEA94
FFFFDFB6
0000086D
00001D0B
FFFFE9AA
000008E9
FFFFE7D3
000014D4
FFFFE8EA
00000878
0000054A
0000003D
FFFFEBCB
0000023D
FFFFEC7B
FFFFDFEC
00001959
FFFFE93B
0000204B
FFFFE9F3
FFFFE12D
FFFFF167
00000809
FFFFD596
000009EC
0000245F
FFFFE214
FFFFDFA4
00001828
FFFFE40E
00000A72
FFFFE203
FFFFE51A
00001BF2
FFFFF948
000008B5
FFFFFE02
00000E47
00000259
000008B0
FFFFFF38
00002030
FFFFE4D2
FFFFECB5
FFFFD6C6
000003B8
0000056B
00001714
00002204
FFFFDDBF
000012AB
00000ACC
00002130
00000089
FFFFD5FC
FFFFE5D0
FFFFF74F
000020F2
000002C9
FFFFF50F
FFFFEEA6
FFFFE488
FFFFF6E3
0000122D
FFFFE800
FFFFEA05
FFFFECFB
FFFFDEDB
FFFFF723
FFFFF2A4
00001C7C
00001701
FFFFF212
FFFFE8E1
00001409
FFFFDB11
00001BCD
000004BD
000019C8
000008A2
00001DF3
FFFFEC1F
FFFFF352
000010C9
000004ED
FFFFE2D8
000007AB
00000208
00000968
FFFFF1DE
00000D98
FFFFF8DF
FFFFF844
00000B5D
0000010D
FFFFFE18
FFFFFB73
0000186E
FFFFEF89
00001AC2
0000082D
FFFFE82B
FFFFF592
00000B7B
00000DD3
FFFFF1B3
FFFFE899
00001DC8
FFFFF63E
FFFFF9A7
FFFFF5F2
FFFFE35B
00000CCB
00001E1A
00000584
FFFFE940
00000026
00000010
0000017C
FFFFDF0F
000013C0
00000004
000006C0
FFFFDAB0
00000424
FFFFE711
FFFFF11E
FFFFE246
FFFFE331
FFFFECB9
0000083B
FFFFDC38
000021EB
FFFFF730
FFFFE648
FFFFF0DE
FFFFE86D
000020FB
FFFFF57B
FFFFF46E
00000E11
0000030C
FFFFD947
FFFFDAFE
FFFFFAE0
0000112B
000008E2
FFFFF9F6
00000E73
00000C44
FFFFF52D
FFFFF6B3
0000145A
000007C4
FFFFDCA3
00000150
FFFFEFC6
00002205
FFFFD4AC
00000538
00001A1E
000006A2
FFFFDC5A
FFFFFCDC
00000965
FFFFF769
00001C84
FFFFFA6A
FFFFF80D
00000184
FFFFE226
00001D6C
0000078B
FFFFE494
FFFFE8CE
FFFFEC57
FFFFE857
00001FC1
FFFFF60E
00000CCC
FFFFF302
00000044
00000C5B
0000144F
00001A7D
00001CA8
FFFFEF88
FFFFE849
00000A5B
000015B3
FFFFF88A
FFFFFE89
0000066A
FFFFEA54
FFFFE3BB
0000131A
FFFFF2F4
FFFFF051
0000008F
FFFFE405
FFFFFE28
00000D63
00000557
0000073A
FFFFE68F
FFFFF1B8
FFFFFDE7
FFFFE406
000017E6
FFFFF15F
FFFFD7A1
00000F48
FFFFF203
000001E2
FFFFFB85
FFFFF8F0
FFFFE75C
000013FD
FFFFFAAE
FFFFFDCE
000017B2
FFFFEB18
00001624
0000195D
00001890
00000BD4
000001DC
FFFFFF8B
00000100
FFFFD95A
00001415
00000349
00000FA8
FFFFED5E
00000C01
00000D00
00001DF7
FFFFEF21
FFFFF7B4
FFFFFD08
00001009
FFFFE170
FFFFDA15
00001C58
FFFFE3D3
0000200D
000003F5
FFFFEFA4
FFFFF941
00001CE2
FFFFF6BD
FFFFE3AE
FFFFE28A
00001532
FFFFE6D5
FFFFE614
00001337
0000183D
FFFFE863
FFFFE949
FFFFEB92
00000B69
0000173A
FFFFE52A
FFFFEE37
FFFFF384
00000E92
FFFFF312
FFFFD5DC
000018BD
00001EDE
FFFFF1C5
00001EA0
0000125B
FFFFD9D0
00001848
FFFFED47
00001182
00000B5E
00000356
00000962
FFFFE7C0
FFFFFD25
00000E89
00001785
FFFFEB65
FFFFF7A3
FFFFFCE6
00000081
FFFFE4B7
000024C2
FFFFDCEE
00000C9D
FFFFD70C
FFFFFE08
00001AF3
FFFFE1C1
00000140
FFFFEFDF
FFFFDEBE
FFFFDC5C
FFFFF070
FFFFE937
00000E3C
00001340
00000F30
FFFFF72B
00001FDC
FFFFFDD4
FFFFE133
0000090C
0000060D
FFFFFB7B
FFFFECDD
FFFFE889
00001D15
00000E47
FFFFEAC0
00000D16
000007F6
00001043
000001A9
0000062F
0000122B
FFFFF599
000021A0
00000A7C
00001A17
00001276
FFFFE9C8
0000168C
00000B72
0000089D
000013BA
FFFFFF8F
FFFFEB6E
FFFFF8F3
0000134A
000009A3
0000082B
00000EBA
FFFFFD8A
FFFFF2AE
000025CF
000009BF
0000124C
FFFFFC24
FFFFF488
FFFFEB4A
FFFFE86A
FFFFECC3
FFFFE5A3
FFFFE24E
000008C7
00000361
FFFFF53C
00001CD7
FFFFE87B
000013E4
000018D2
000015EF
FFFFFD19
00000D62
FFFFE2D9
00000694
00001861
0000136D
00000144
FFFFF232
000013F7
FFFFE2E8
FFFFF4C8
00000F3C
00000913
00000D58
000007E4
0000007B
FFFFF06A
FFFFDA22
00000C3D
FFFFFEFC
FFFFF777
FFFFF614
0000163A
FFFFFB3B
000010F6
FFFFDDB6
FFFFF3B8
FFFFFA7A
FFFFFBCF
00000365
00001D48
FFFFE8CB
FFFFE030
00001F4C
FFFFFC24
000013D1
00001AE1
FFFFECA3
FFFFFA1B
FFFFD2B7
FFFFE1BF
FFFFF6BC
00000AE6
FFFFFA0F
FFFFDB8B
00000058
FFFFE47F
000001B8
00000AB7
00001168
0000217B
FFFFD5B5
0000102F
00001CBF
00001F61
FFFFF209
FFFFD7F7
00001D0D
00000A36
00000F86
FFFFFC3D
FFFFDE0D
FFFFEE96
FFFFF5D5
FFFFDAB5
000013D0
FFFFDBF5
FFFFF284
FFFFFD66
FFFFF1CE
FFFFF1F5
0000089E
00001740
000006F0
000002C4
0000129F
FFFFFF56
00001409
FFFFF340
00001A8F
FFFFDA4E
00000B7B
00000891
00001E01
000016E2
000011F3
FFFFFE3E
FFFFEE1C
FFFFED57
FFFFFE0D
FFFFE82D
000001E8
FFFFEBDA
00001AF9
00000B35
00000E71
FFFFD818
FFFFFF6B
FFFFE119
00000EA9
000015C0
00000DEB
FFFFE902
FFFFF5C7
FFFFEC0B
FFFFF8AE
FFFFE709
00001CAA
FFFFEC61
000012F9
FFFFF4F1
00000860
00000D14
FFFFDAA5
0000078A
FFFFFD9C
FFFFDAEA
00001079
FFFFEE4E
00001EE6
FFFFF7AD
00001006
00001324
0000199D
FFFFCC8A
FFFFEC65
FFFFE6B4
0000006C
000021AB
FFFFE2BE
00001F97
FFFFE69D
FFFFE7F6
FFFFF66F
FFFFDC22
0000202E
FFFFF3B9
FFFFDDAB
00002056
000006CA
FFFFE9DC
FFFFECAD
FFFFE9ED
0000197D
FFFFFA5A
FFFFD97B
00002404
FFFFF65B
0000134F
000013CB
FFFFFA78
FFFFDA6D
00002183
FFFFD739
FFFFDDD1
FFFFEBA0
FFFFDB8F
00001713
000011A5
FFFFF502
FFFFDA63
FFFFE7FC
00000942
FFFFE8BD
FFFFE28A
00001ABC
00001D09
FFFFEA17
FFFFDD32
FFFFEA60
FFFFE3C6
FFFFFE04
FFFFE441
00002788
FFFFEE9B
000021B1
FFFFE70B
FFFFF322
FFFFF6C3
000001FE
000013A8
00001841
00001B3A
FFFFDFC7
000007A7
FFFFD910
FFFFE4F0
00001B4B
FFFFF78A
FFFFD77A
FFFFF890
0000194E
00001919
FFFFE2CD
FFFFFB9E
00001FE3
00000A08
00000F35
FFFFE0A3
FFFFE56D
FFFFF48F
00001B5F
FFFFF646
FFFFD5C3
FFFFFF7F
FFFFD4C3
FFFFF186
000006BF
FFFFFFBD
000008DE
FFFFD4AD
00000D31
FFFFEF06
000003CA
FFFFE42A
FFFFE638
000016FB
FFFFFFFC
FFFFF0C4
FFFFFC13
FFFFFD77
FFFFF429
FFFFEE1C
00001315
00001C44
0000078C
FFFFEC4D
00000867
FFFFE452
FFFFFA2D
FFFFE32D
FFFFF6C1
00001278
FFFFF548
FFFFE345
FFFFF294
000015B1
00000CDF
FFFFDD3A
FFFFF988
00002658
FFFFE63A
00001D40
00000DDC
FFFFD8D9
000004F3
000015D2
00000708
FFFFF546
FFFFFA1E
FFFFDBBD
000011FA
FFFFEC6D
00000FE0
000019B6
FFFFD75F
FFFFE829
FFFFF785
00001288
FFFFE814
FFFFEC3B
FFFFE5FD
FFFFFD8A
FFFFDD1B
FFFFE494
FFFFFBD6
FFFFF32C
0000208C
FFFFE54D
FFFFE953
00000EB8
00000DE8
0000084C
FFFFE51A
FFFFD9DA
FFFFFF22
000022F7
0000118D
FFFFE84B
FFFFE5ED
FFFFEB91
00001A4A
000008BE
FFFFF82E
00001682
FFFFF48E
00000FA2
FFFFEA2B
FFFFECC5
FFFFF404
FFFFF1F0
FFFFF28A
00000998
00000CBE
00001884
00001226
FFFFE3E3
FFFFE00B
FFFFD207
00002060
00000027
00000AB3
FFFFF323
00001ECF
FFFFDC19
FFFFE8A1
000013B4
FFFFF798
FFFFE229
FFFFED0B
000001B3
FFFFF28E
0000101F
FFFFE0F5
FFFFE8E5
00001347
00000690
00000E0A
00000293
FFFFE70D
FFFFFA92
FFFFD9B6
FFFFFF04
0000140D
00001458
00000D46
FFFFE1BD
0000109B
FFFFDABE
FFFFDCE3
FFFFFEC0
00000E8C
00001104
00000702
00002477
FFFFF9CD
FFFFE6DD
FFFFDBD7
FFFFF522
FFFFEC04
FFFFD9CA
FFFFE1FF
FFFFD9B0
0000192B
FFFFFA7E
FFFFED27
FFFFFFB8
00000AAE
00001D2F
00001496
0000070A
FFFFF285
000009A3
FFFFECC1
0000022A
00001537
0000010C
FFFFF8FE
000012AB
FFFFEC24
00000E52
00000E02
FFFFF084
FFFFEC25
000014D8
FFFFEC2E
FFFFF642
00001CA4
FFFFF3F7
000007B2
00000432
00001ACD
000004EB
00000B70
0000142C
00000098
FFFFE1F2
FFFFF1CA
00001154
0000071B
0000151B
FFFFFD93
00000200
FFFFE500
00001B4D
FFFFF941
FFFFFB6A
000010BD
FFFFECED
FFFFF2A1
FFFFF826
FFFFE188
FFFFFB49
00001B54
0000116B
0000005F
FFFFE4F3
FFFFEE14
FFFFF4CA
FFFFE7B7
0000153A
FFFFEF29
FFFFF8C1
000018AE
00001FF8
00000A01
00002421
000000B1
FFFFD7A7
00000A19
FFFFED0E
0000116D
000012CB
FFFFEE4D
000011A3
000002E6
00001E78
FFFFEA04
000007F1
00000FF0
0000146C
00001199
FFFFFD27
FFFFF608
000005CE
000009D4
000018BC
00001BA0
0000067D
0000100D
00001C40
000002DD
000002DB
0000195D
FFFFDFFD
FFFFF4AB
FFFFFBD4
FFFFF4A1
00000B5F
00001C59
FFFFDCF3
0000100B
FFFFE15E
FFFFE7A5
00001849
00000EE0
00000B3A
0000028C
0000266D
00000275
000016DB
00000848
00000272
000005FA
0000064F
000012D9
00001513
FFFFF902
000009E5
00000A0A
00000171
000010FD
FFFFD122
FFFFF37E
FFFFF498
000009E7
00001BB7
00000866
FFFFFB9A
FFFFE303
000001A8
00001351
00000EA8
0000010C
FFFFF7E6
FFFFF8A3
000016C6
000008EC
FFFFF76A
00000D7D
FFFFF348
FFFFFE81
0000104B
FFFFE9A0
00001AB2
FFFFE5FC
00001414
FFFFE3B4
FFFFE222
FFFFD10F
00001C3F
FFFFD784
FFFFF849
00000C02
00000B75
FFFFFFFF
00000B5C
FFFFEF6B
FFFFE640
FFFFFC2A
FFFFED85
00001455
0000175C
FFFFFA27
FFFFFB7B
00000880
FFFFE861
00000061
FFFFDBD4
FFFFF1EF
0000187F
000016A6
00000DD7
000012F4
0000227C
FFFFEC9E
00001B97
FFFFEF05
FFFFFED0
FFFFE583
FFFFF3DA
0000151E
000008A5
FFFFCA09
FFFFE5B7
000005FB
FFFFF0B6
00000031
FFFFF433
0000069A
00002097
FFFFDE78
FFFFEECF
FFFFED99
FFFFE410
FFFFEE46
FFFFE154
00000BB6
FFFFFAEB
00001509
FFFFE273
00000EFE
FFFFF3FB
FFFFFACB
FFFFF852
0000034A
FFFFEE70
00001AB1
FFFFE8AA
FFFFE94B
FFFFCAFD
00000559
FFFFEBF9
FFFFEFE9
FFFFF30A
00000365
FFFFDFD5
FFFFEA58
00000416
FFFFE558
000018AF
00000F16
FFFFE21E
0000155A
FFFFFC47
FFFFF1F5
FFFFE6A2
FFFFF25E
FFFFFAE3
FFFFDF3F
00000529
000008CA
FFFFE5E2
FFFFF02A
00000EE8
00000A88
000005D1
00000D94
00001791
00002308
FFFFF371
FFFFFF71
FFFFE283
00001BF7
000014E0
FFFFEE60
00001EBA
00000764
FFFFFA38
FFFFFA61
00000695
FFFFED35
FFFFEB01
000006B4
FFFFE93A
FFFFF093
00000C4A
000014DF
00000035
FFFFE76A
00002043
FFFFDF12
FFFFE33F
00000A91
FFFFF519
FFFFF430
00000262
00000772
FFFFE49F
0000197D
FFFFE143
00001303
FFFFDEA2
FFFFE8C0
FFFFE2E2
FFFFE2E4
000014BE
00001F71
00001096
FFFFFBF5
FFFFE2CA
FFFFF824
0000016C
FFFFE3AC
00001300
FFFFDE7C
FFFFFC63
00000B99
00000599
FFFFE363
FFFFEB62
FFFFF364
00001C1F
FFFFF461
00000C93
00000F07
FFFFD988
0000015E
00000BDC
FFFFE71B
FFFFF6BE
000015A0
FFFFF1A2
FFFFEFB1
FFFFE4BA
FFFFE7EA
00000119
000006E7
FFFFF8BF
FFFFFAE7
FFFFF856
0000194B
FFFFFA4E
0000155E
0000033A
000009AD
00000502
FFFFE12D
FFFFEB41
FFFFE442
00001EE6
FFFFFFAC
00002040
FFFFEC7C
FFFFF7A9
FFFFEBDE
FFFFFA0C
00001A9E
FFFFE02E
0000138D
00000B68
FFFFF421
FFFFE7A0
00001A9D
FFFFEE93
FFFFF31D
FFFFFA06
00000567
FFFFFCB9
FFFFF149
000019F5
00000809
000007D0
000010AF
FFFFDF91
00000C82
FFFFFA31
FFFFDA41
FFFFF85F
00000DD3
FFFFE586
FFFFFEB7
FFFFF9C0
00000ABA
FFFFF9A6
00001001
00001568
00000C0D
00001C69
0000048A
FFFFD8BD
00000836
00001272
000017C3
FFFFEB25
00000336
00000AD1
FFFFF10C
FFFFDC78
000016E1
00000FD4
FFFFFA47
000007F5
FFFFFA7C
FFFFE870
FFFFD97B
FFFFEC7D
FFFFE211
FFFFE6CF
00000873
FFFFEC5F
FFFFDBD4
000020E2
00001CE5
FFFFDBE5
00001429
FFFFFC3D
FFFFEF57
FFFFF43A
00000203
00000290
FFFFEEA1
FFFFE95B
00001E14
FFFFF266
00000663
FFFFEC2C
FFFFFE9B
00000305
0000107C
00000F86
00001D29
000001CC
FFFFE590
0000050B
000010B2
000009C4
FFFFFB00
FFFFE195
00000091
FFFFDB1D
00000696
FFFFE819
0000081C
00001A9C
000003BF
00000C16
FFFFE13B
0000039F
FFFFDC5D
00001215
000007AA
FFFFFDCF
FFFFF955
0000095B
FFFFF092
FFFFE39B
FFFFEB25
FFFFE770
00001339
00001841
0000026D
000012B0
FFFFE073
FFFFE6B7
FFFFEB4F
00001CC1
FFFFE81B
FFFFF79A
00000F4D
00000C95
FFFFF9B1
FFFFF731
FFFFE3CA
00001E7C
FFFFDB26
FFFFFDA3
FFFFF66F
FFFFF622
00000907
00000699
00000476
FFFFD718
FFFFEB27
000008CC
FFFFE35C
FFFFF8DA
0000134C
00000F16
00000278
FFFFFF7B
0000069C
FFFFE5CD
0000082F
00000C83
FFFFF598
FFFFFAB2
FFFFF1ED
FFFFEBA2
00001534
FFFFF213
FFFFFE8C
FFFFE2B7
FFFFCC75
00001CB9
FFFFDFB6
000001FD
FFFFECE7
0000157D
FFFFF3E1
FFFFEDED
FFFFEE21
000019EB
00000C26
FFFFDDF0
FFFFE6E6
0000192B
FFFFDEAC
0000283F
FFFFE346
FFFFE99F
FFFFD6F3
00001826
FFFFD7B0
FFFFF271
FFFFFBEA
FFFFF769
00000413
000007CB
FFFFF81E
FFFFF2DB
00000982
000011CF
00001AE1
00001A36
FFFFF25E
FFFFD5E5
FFFFFC45
FFFFF4D5
FFFFF19C
00001148
FFFFF0BB
FFFFFAC2
FFFFD2A6
FFFFEFA3
FFFFD3B1
FFFFDCBA
FFFFF099
FFFFE217
000012D1
FFFFF9EA
FFFFDD0C
FFFFF2A8
000003B5
FFFFE021
FFFFDD4B
FFFFE28F
000018BB
FFFFE5F6
00000975
FFFFF844
FFFFF3FF
000004B8
FFFFE208
FFFFF1A6
FFFFE877
FFFFE9EF
FFFFF53C
FFFFFA30
FFFFF1BA
0000121F
FFFFF32C
FFFFEA9E
00000CEE
000008F7
00001643
FFFFF8E9
FFFFE865
FFFFF3E6
FFFFE1F9
FFFFE629
0000157D
FFFFFC82
FFFFF7A5
FFFFDB30
FFFFE923
00000CBE
00000ED6
00000080
00000A6F
000005CF
FFFFF43D
FFFFEF23
00000227
000011FE
FFFFE9CD
FFFFFEC5
FFFFE6F1
FFFFE65F
000008F1
FFFFFE90
FFFFE665
000005AE
00000D10
00001DEF
000008A0
FFFFF587
00001E6D
00000C5B
FFFFE910
0000065C
FFFFEF00
FFFFEE9A
FFFFE4F7
000017C4
FFFFEBD4
FFFFE017
FFFFE1A1
00000DFC
FFFFEB6A
FFFFEC5B
FFFFFA08
FFFFEEB6
FFFFE94E
00000C46
FFFFE4FA
FFFFF0EB
FFFFF41C
00001FAE
FFFFD8A4
00001520
0000014F
00000218
00001698
FFFFE2DF
00001A90
FFFFF701
00001476
00000DBB
0000037F
FFFFE72D
00001EBE
FFFFF7E3
FFFFFFD5
FFFFDDC9
000010CD
FFFFE5F0
FFFFF409
000019F4
00000A65
0000037F
FFFFFD63
FFFFFBA0
000012FC
FFFFEEBB
FFFFE71D
FFFFED70
00001AB7
FFFFDF1B
00000471
0000025D
FFFFEAC3
FFFFF27D
00001B9B
00000BC1
000017EF
FFFFEBB5
FFFFEFC5
FFFFE4E0
0000036E
000015CF
FFFFF2BE
FFFFEB6C
FFFFF67A
FFFFEF96
0000027D
FFFFE6EC
FFFFFCD4
00000975
FFFFEA49
FFFFE513
00001AB4
00000802
00000869
FFFFED41
FFFFE6FE
00000711
00000C7C
FFFFF3DA
FFFFEDFE
00000C8B
FFFFE25A
00000C5C
00000B90
00000C1E
0000093D
FFFFFB55
00001C2C
000003CD
FFFFF314
FFFFDDE8
FFFFEABF
00001569
FFFFE115
00001D83
00001A40
00001492
FFFFEA4D
00001483
FFFFE7ED
0000152D
FFFFFA0E
FFFFDC91
FFFFFD62
00002351
FFFFE3C4
FFFFD9DD
00000389
FFFFE75F
0000013A
FFFFE686
00000385
000001B0
FFFFE829
00000752
00001139
FFFFFD39
00000589
FFFFE464
00000EE7
FFFFDBF7
00000040
FFFFEB03
000014ED
00001A03
000012DF
00001633
FFFFDF7F
FFFFEBC3
000003D5
FFFFE5F7
00000497
FFFFED7F
FFFFEF37
0000188C
0000180A
FFFFFA00
00001AD8
FFFFF8B2
00001CC8
FFFFE915
FFFFEB02
000013CC
00000B07
FFFFFC31
FFFFFF76
00000C82
FFFFFFAA
FFFFEFC8
00001E8B
FFFFFC07
FFFFE430
00000F25
00000835
FFFFE47C
FFFFF52D
FFFFE11F
00000B30
FFFFFC57
FFFFE5F1
FFFFF8F9
00001A45
00001270
00001742
FFFFF7F7
000002DB
FFFFF201
0000198E
FFFFFB2C
0000297D
00001027
000012E9
00000773
FFFFE1D8
000008B9
00000BF3
FFFFE32A
00001565
0000085A
00000A4E
FFFFF5C2
FFFFE194
00001179
000018D2
000019D2
FFFFE3A9
FFFFF200
FFFFF766
FFFFFCA8
FFFFF80C
000003A6
000003A3
FFFFEC52
FFFFDEB5
FFFFFE4B
FFFFFBBD
FFFFEB27
FFFFE419
FFFFDE5A
FFFFE705
FFFFEDDB
00000F73
FFFFF04B
00000438
00001C97
FFFFFAB1
FFFFEA2A
FFFFF952
000019C8
FFFFFDB4
00001978
00001E87
FFFFE955
00000587
FFFFF3C2
FFFFE22E
FFFFE7B4
0000068E
FFFFF0DE
00001ED0
00000594
000010F7
000026D5
FFFFD68D
00000F64
FFFFEF4E
00001BFE
FFFFFB72
FFFFFCEC
000006D3
FFFFFB43
00000577
000015CD
0000064F
FFFFEFAC
000015C9
00000E1F
000000CB
00002EC0
FFFFE7D7
FFFFFCC8
00000811
FFFFEC65
000014FE
00001270
00000470
FFFFDF76
FFFFDFF4
FFFFF284
000017CD
FFFFDFCD
000018C4
FFFFD6CA
000011C8
00001746
FFFFED32
00001157
00001CD9
000009EC
FFFFEBE6
FFFFE5A6
00002068
FFFFFE88
FFFFDD9D
FFFFFBDA
0000035A
00000577
FFFFD576
00000F38
FFFFDCBB
FFFFE8A6
0000031A
00000A91
00000EAA
00001E33
0000068C
FFFFE671
FFFFF4D2
00000EF8
00000DEF
FFFFE67E
0000170D
FFFFDB9F
0000161C
FFFFF324
0000189C
FFFFDF97
FFFFFBEB
00000288
000000FF
0000072D
00000786
0000123E
00001799
FFFFF86D
FFFFF720
0000210E
00001D6D
00000AAA
000019F6
000014D3
FFFFFB9A
00001AC8
FFFFF1CE
000011BB
00000052
00000245
00001CC8
FFFFD8EB
FFFFE742
FFFFE5D0
00000A0A
00001503
FFFFF3BC
FFFFE924
000014BE
FFFFEE2F
FFFFD862
000002B4
FFFFE431
FFFFF1E0
00000C89
00000505
FFFFE018
00001B1A
FFFFFFE3
FFFFEFA5
FFFFE316
FFFFFC5D
00000A9F
00001542
000002C3
FFFFFBCC
000019EB
FFFFEF29
FFFFF439
FFFFD3E5
0000023D
FFFFDDDE
000009A6
00001C1A
FFFFEB70
FFFFDA88
FFFFC5C1
FFFFE599
0000127B
00000B4C
000019CD
00000B86
000021B5
00000E4B
00000108
FFFFED7E
FFFFCD48
00000FD6
0000086D
00000F0C
FFFFE6C9
0000094C
FFFFFFFE
FFFFDBD6
FFFFEFE0
FFFFE396
FFFFF30D
FFFFF512
FFFFE1DF
00001AB6
FFFFDDE7
FFFFED39
FFFFF5A2
00001B30
FFFFE2AD
FFFFF29B
FFFFFCC2
FFFFE532
0000038F
FFFFFB52
FFFFD484
FFFFDC5E
FFFFD8BA
FFFFE4DA
FFFFE7F4
FFFFFD85
00001E8E
0000013D
FFFFFB12
FFFFE3F7
FFFFF5B2
00000715
00000D18
FFFFE751
FFFFE97A
FFFFF0BE
FFFFE5F5
00001163
0000141A
000024C9
00000B35
FFFFF9C7
FFFFFE72
00001268
00001A88
FFFFE01C
000014A3
FFFFF09F
00000C1D
FFFFF828
FFFFF7EF
FFFFFBFA
00001C5F
000010F9
00000B7B
FFFFFF50
000009B0
00001787
FFFFF4CA
00000048
FFFFDF65
00000C39
00002224
00000065
FFFFFF86
FFFFF4F4
00001556
FFFFEB5E
FFFFE327
000013ED
000005C4
00001FD6
00000CFA
FFFFF6EF
00000BBF
00001C25
FFFFE5A4
FFFFED3C
000019FE
000015AB
FFFFFC2A
FFFFFDEE
00000581
FFFFD6A3
000004BC
000002B8
FFFFF54F
FFFFEA64
00000526
FFFFF4FB
FFFFF13A
00000B95
FFFFF4DE
00002065
FFFFF2BC
00000829
FFFFE9C1
FFFFEAC6
00001471
FFFFF31F
000000CA
FFFFFEF6
FFFFEE9A
FFFFE3E4
00000630
000012A2
00001A00
0000077C
000001C1
00001194
FFFFD91A
FFFFF620
000016AD
000006D1
00000DE6
00001ADF
000010FE
000018B5
000012E1
00000195
000021BD
00001409
FFFFF655
000000D9
000002AA
00000F26
FFFFEA33
FFFFE9C6
FFFFDBB3
FFFFFC34
FFFFE359
FFFFFD5D
FFFFEE1D
FFFFEEBF
FFFFF540
000002DE
FFFFDC9B
00000681
000019B2
FFFFE3D9
FFFFEDFE
0000159C
000001EB
00001503
00001C00
00000F07
FFFFE881
FFFFFF2D
FFFFF743
000005C2
0000077E
00000452
00000A4A
0000062F
00001CB6
00000FF2
0000061B
000017FE
00001361
00002027
0000045D
FFFFEBEF
00000656
FFFFFC6F
FFFFE92F
00002059
00000840
FFFFEC6A
000018B0
000002C2
FFFFE293
FFFFE4A4
FFFFF8DF
00001AB0
00001882
FFFFEF25
FFFFE6ED
00001F23
000000D5
0000062F
FFFFDE12
FFFFE9BA
00001CAD
000013E9
FFFFDFCB
FFFFF3A7
FFFFE52F
000009E0
FFFFCD14
FFFFFD60
FFFFE579
FFFFDDDC
000007B3
FFFFE2E6
00001AE4
0000108E
00001CDD
00000AD7
FFFFFF5A
